MEMORY_INITIALIZATION_RADIX=16;
MEMORY_INITIALIZATION_VECTOR=
00000000,
00000000,
00000000,
00000000,
00000001,
00000001,
00000001,
00000001,
00000002,
00000002,
00000002,
00000002,
00000003,
00000003,
00000003,
00000003,
00000000,
00000000,
00000000,
00000000,
ffffffff,
ffffffff,
ffffffff,
ffffffff,
fffffffe,
fffffffe,
fffffffe,
fffffffe,
fffffffd,
fffffffd,
fffffffd,
fffffffd,
00000000,
00000000,
00000000,
00000000,
00000000,
00000000,
00000000,
00000000,
00000000,
00000000,
00000000,
00000000,
00000000,
00000000,
00000000,
00000000,
00000000,
7fffffff;
