MEMORY_INITIALIZATION_RADIX=16;
MEMORY_INITIALIZATION_VECTOR=
00000000,
00000000,
00000000,
00000000,
00000001,
00000001,
00000001,
00000001,
00000002,
00000002,
00000002,
00000002,
00000003,
<<<<<<< HEAD
00000004,
00000005,
00000006,
00000007,
00000008,
00000009,
0000000a,
0000000b,
0000000c,
0000000d,
0000000e,
0000000f,
00000010,
00000011,
00000012,
00000013,
00000014,
00000015,
00000016,
00000017,
00000018,
00000019,
0000001a,
0000001b,
0000001c,
0000001d,
0000001e,
0000001f,
00000020,
00000021,
00000022,
00000023,
00000024,
00000025,
00000026,
00000027,
00000028,
00000029,
0000002a,
0000002b,
0000002c,
0000002d,
0000002e,
0000002f,
00000030,
000000ff;
=======
00000003,
00000003,
00000003,
00000000,
00000000,
00000000,
00000000,
ffffffff,
ffffffff,
ffffffff,
ffffffff,
fffffffe,
fffffffe,
fffffffe,
fffffffe,
fffffffd,
fffffffd,
fffffffd,
fffffffd,
00000000,
00000000,
00000000,
00000000,
00000000,
00000000,
00000000,
00000000,
00000000,
00000000,
00000000,
00000000,
00000000,
00000000,
00000000,
00000000,
00000000,
7fffffff;
>>>>>>> d0445027d2ff33835ef087ea2a61cce18dd2f6f2
